BE4057C9
3DDAFDB1
BE31125A
3E920AC0
3E37538B
3EA3F592
BE13A708
3E3E4FC1
BDB23F38
BEAF2237
3E7BAB6C
3E8236CF
3E8E1FA7
BDB626A4
3DB2F6E1
BDB5844C
BE2C0CC0
3D84A5E0
3DE51F5C
BD92C2F4
3EB001C8
3E325056
3E421621
BCFA9662
3E8ED5CE
3D9E560C
3E12F3CA
BDEDD840
3E3617A4
BD21F01C
BE070EA2
3E897382
BE391B91
BDFBDCD2
3E4FC2CE
3D9F8EE2

