3D867B20
BE20A021
3EA95DD5
BE8638E8
3EA813B6
3D48AE47
BE68D206
3E80F80D
3D6E3A46
BDC0FE53
3E47CAF8
BD67B4E4
3E42E944
3E6849BD
BE2826A6
3EB3518A
3E852C54
BE7B2723
3E7B2113
3CD702C2
3EE9077A
3E6B5B4E
BE28E87E
BD3F7AB0
3E7B3421
BD1B416B
3E40C0AE
3E3F6FE9
BD9F9BCA
BE80ED6F
3E53BEE2
3D6C1956
3DE65A5B
BCE146DB
BDDA0DF1
BE3DF114

