BE88FEEF
BC9302D9
3E53CA9E
BDAF12C5
BCD99281
3DFE4C81
BE05A7A6
BDAECBAD
3BDDFBA1
3E2505D6
3D354121
3EBD8F56
3DA89803
3ED9ECFE
3E4548FA
BDD710C6
3EC83E2A
BDDFCF10
3ECEE33E
BE131DAF
3E109ABA
BDA8882B
3E36F5A1
BEAC3858
3E499A22
BBB9B903
3ED3F96B
3E4ABA24
BC3789DF
BE8179D9
BA8A4BA7
3E719B11
3E0166FA
3E2282A8
BE3A45DB
3DF909F9

