3ECA310E
3E1FDF1C
BD100E3C
BE123BDC
3E29D23C
3E89F1D4
BE618D34
BE07AF9D
BE940ABF
3BF2C937
3EC79EB1
BEB51B5F
3C48455B
3E013C6E
BE935B09
3EC405D6
BE5016E9
3E056F5B
BCDACE9F
3C5DAE3F
BC236F07
3EB18981
BE9BD2F9
3EABAC85
BE408446
BE0709A7
BE2D8747
3E2F3991
3CA2FC52
3E016D38
3CC5B673
3EB9CFF6
3E2FEE34
BE230DDB
3EB977E2
BC73E9AC

