3D8BF0F0
BE263CA7
3E44C592
BE2E629A
BE559EAD
BE098645
BDE9ECF6
BE4220C5
3E68DEA9
3E872EA3
3E29875E
3D6A8309
3E85F054
3E220334
BAD73253
3E7AF07C
3E80AF05
BE1E6200
3E43FC82
BE1D17E6
3E376193
3D716DB3
BE0A3C0C
3E554B25
BE1A0CEC
BE804871
3E1CB5FE
BCE7CF88
BE0B2892
3E242B1B
BC16704C
3B0EACE4
BE1A2E34
BE3A1720
3EBA6F26
BE123EA0

