3EACAB6F
3E09888D
BDF27DA3
3E866017
3E21EE2F
3EB2D422
BD066A2C
BDFE328C
BE175305
BDDECDDB
3EC72A3F
BE190557
3E869F63
BDE93035
3E54D6D0
3E7504CF
3E3BCAE3
BE814CB7
3E90B840
BDF8BF13
3EA6385E
3EA2E8FB
3E0AE28A
BCC95840
BE4ACC26
BE97BE33
BDD1C7ED
BE8719C9
3E7C4A18
3CA19770
BCDA20EC
3EB19849
3E1CC82D
BCD7408D
3E8CA4A9
BE4266AB

