BE0079EE
3E2B9ED5
BEB175CA
3E1A6241
BD47D648
BE63DD0B
BDB43D57
3E6D7FD9
BED182E2
BE5A3B12
3E3AF7EB
3E7678CB
3DFA97AA
3E60214C
BEE96E9D
BE35D628
BE307F8F
BE01EC3C
BE7A89B2
3E26FF83
3DD6F8E6
3E729A62
BCF3F9C8
BC96EA93
3DD242A5
BE84CE8C
BE4489E2
3E5AC03D
3E88F13D
BED5359E
3D7159AF
BE262924
3E60A6DC
3E7F111E
BD9CAD2B
3D0BF74A
BE60EA0B
BE68D29B
BD9C5371
3CB3BA07
3C45F48C
BE5970CD
3DEF50FB
BEE2C056
BE93E4E8
BCCF307A
BE9C3E3B
3D28F74A

