3C9E7C2C
3E75B21E
3D45C620
BD80D479
BDBD9EAD
BED351F4
BE40DD9E
BB8A311C
3E50EB91
3E4A2A78
3E50C207
BE41A29E
3E533106
BDBF0915
BE97ABD5
3E195527
BE054C2B
3E8D8098
3E4833DB
3E68D3F9
3E37572D
3EB6A21F
3EA7BC27
3E816C89
3E98987F
3EBA9865
3E06EB4B
3E0C8647
3CCB832B
BE025B45
3E877056
BD9AB428
3E7E95A5
BF1BB8E9
3E5A6E9D
3EA2D81E
BE8F0A02
3DC267CD
3E4EA3CB
3E2AECF9
3E28BD4C
3E0AB013
3EC98D5F
BDDACBE4
BE296FA9
3ED1A2A5
BE982610
3F04D9A8

