BE1B404D
3C94E9E0
3E3C12B7
3E423710
BEA9A082
3E0A7829
BE7963A4
3D5C3D46
BEE31E49
BCEC0C62
3C1DB485
BE10AF7D
3E4D3594
BE85A632
BE8E48D9
BDA040A5
BE9B03CB
BDCB4510
3E2DABE0
3DD82723
BDE9ECB4
3E0147BF
BD416B31
3E947CF0
BDAEE0FF
3EBF9722
3DCA2304
BCBE84B0
3EA5CF50
3EAF3A15
3E59B145
3D6B9CF1
BEAD9539
3EBBB507
3D20214C
3DCAFDD0

