BE93205A
3E68B3E9
3E3AA854
3D537AF4
3ECDB529
BD5E1FDC
BDF19318
3E340FD2
3E90448F
3EC00C89
3E9FB955
3DFA9291
BD350BB4
3EC15869
3EE90849
BDC34E24
3E0DE7EB
BE26DAA6
3E1D8AB6
3E0C2E03
3DE16078
BE64D743
3E95A438
3D69C215
3DE1678B
BE4B46AB
3EC91390
BE3F90D8
BD53E28E
3D5417C4
BDA902DB
BE09F1B4
3E8F38BF
3E5FD6DA
BD426D40
BE2FFEE5

