BD8E0784
3DB0A6EA
3D859AB2
3C824B8E
BD63EDFD
BE25E0AA
3E05A3C5
3DC083FC
3E789DF8
BEA4C9CD
BD6E07D2
3EB3404B
3DDEE334
3EAD2053
BEB0FC62
3DAC0F1D
3E9CD12E
3C7B5B60
3E8A12E4
3E8E6F2C
BAF34D21
3DB89AC9
BD36104D
3B3CC570
3D4E9BFF
3E98EAA1
BDAC44BD
3EAC6311
3BCA5B1C
3DA47476
3E4884EF
BDBDA962
BC14CE96
3EA80CF3
BE87D709
3E0C51E3

