BF133D32
3E55129F
BD2C35A9
BE25760A
3D3EE5B8
3DECB9BD
3D839FE2
3EE5FAD7
3DDD4F0A
3E55B00A
3DF7C862
3EF2C8C4
BE61A48B
3ED3BFEC
3E23A00A
BE90A589
3E50DE9A
3DC69233
3EC9D00F
3F026A0C
3DFD8EB9
BE07A93F
3E7AE452
3CDF3EE1
3D6C0E76
BE451BCC
3EA2621E
BBB0CDBE
3DF6934E
3E7420FD
3E60B6B3
BED1B504
BE3CA6D7
3ED6B955
BED8AF8E
BD30C4BE

