BE14EF54
BE8A1A15
3E8D21F8
BDF7895F
3CE753DF
3EC775DB
3D226B35
3E8283CF
BC9E6F6C
3D8489B0
3DA3846B
BE9BD14C
BE9EB6B0
3D96FE51
BE133165
3CDED39E
BEACEB39
3D6004AD
3E81E2D9
3E8CA609
3D2785CC
BDAF9A1E
3E25CBF4
3E955E73
3E3D7236
3EBEAF8A
3D31B5D3
3EAEAED1
3E925690
3E5136F8
BE5CD694
BD453FAB
BE4DCF50
BD876994
BDAF6727
BC45C839

