BE8E17C0
3E7DE1BB
3CB0A09E
BFA706F7
3CBCAA56
3E21324B
BDBC52AC
3E4AF522
BE7EA4FF
3E017BF7
3A86A445
BE3402CC
3E2DEFAE
BDC14C6F
BE1F87FA
BE08D617
BCA1F0C6
3E1D80AF
BC1B176B
3EBB4DAF
BEB01A8F
BDC9D629
BD9C5C22
3DC2C753
3E12CB99
3E313143
3E3DA2AE
3D1FEA7A
3E92DD31
BE64B014
BD745A75
BE2483AA
BE518AF1
BDB6A328
BE5DB2D2
3E56FC7E

