3DA930E0
BD0325F2
3D56973E
3DDA7DF1
3D3857F0
3E044B74
3D12BA3C
BD1C7F88
3E08E4F2
3E0ABF3D
BD15EC71
3D05DDE0
BCA25E74
3D479D60
3E26C354
3D755575
BD23BB69
3D8AABB0
3D52C4B6
3E1D3631
3DA79444
BD083BF6
3DE1AE18
3D34B43A
3DCACFB6
3DCEB564
3E06E986
3DA42EAD
3D26CDEA
3E2EC8B2
3D81CB18
3E23357E
3D1C8329
3D0E8EAC
3DEBAE86
3E456D24
3D24F225
3E2B3E49
3D87D62C
BBEFF8CC
3D1E2392
3E1BAED8
3E130998
3DD43A8B
3E708F63
3DC4FC33
3CDD845A
3DB2AC23

