3E274BC8
3E1DDB3C
BE094E14
3E2F9ADE
3E4EEF10
BE21484F
3D0EF777
3EA3D54F
BE294348
BE5F982C
BE965737
3E38F54B
BD61CABC
3DE079CB
BBA4B813
BE50434D
3DAF1B66
BE032E35
BE2E5404
BD1E066A
3CFCB989
BE6DE9AF
3DE0F561
3D95EBB6
BE7AC6C1
3D00FA5F
3E11AB5F
3D971B43
3E4096F7
BDEAA100
3CAB9D26
BE5421FC
3D51F0AC
3EA6E805
BE8C836C
3D83DB56

