3E34E542
BE43E98E
BDC2AE97
BDF3C111
3E2ADB26
BDD1B0C8
BD0B8155
BDDB742A
BD3C8B94
BE6F4898
3EBE38FC
BEB016EB
3E374B48
BEA8938E
BE81086E
3CBAD107
3DFF8B97
3E85C8C3
3CE5B7A1
BC218C5C
BE125DF0
3CC563B9
BE7188C5
BE007EDF
3CE70AF7
BD32326C
BCD921A4
BE4FBAD2
BE93B002
3E12DAFF
BE950256
3D954835
3E55DF40
BE2F7994
3C9BCA9F
3E2813A8

