3EA5DEE9
BD7D52CE
3E8D0B2D
3E02F574
BF1848C9
3EA70878
3E62F780
BDDE53DA
BEEA20AB
BD86AAA8
BEC2C64D
BECEC8B3
3EB1435C
BF2EA509
BE2E375B
BF1CFFC6
BE896E94
BD9EC0DF
BE958045
BEDDD05D
BF38A410
3EB99E3F
3D971EAB
3EE6DDDE
3DB654E8
3DE36251
BED3321F
3DB5DAD3
BDDB31B3
3E03C6F9
3DB7E26F
3F1955C7
3E8A36B3
BD85B038
3E581B85
BDA963C4

