3E7BE46B
BE50FA1F
3C17D923
3D85B934
3CEE7E4D
3E954534
BCAB0D83
3E062894
3EAA0A62
BE3095DB
3EC22E64
BD340FFE
3D3DCDBF
3EA22427
BDA94136
3E45F3DB
3EB5B17B
BDE8E8D8
3E8E2A4C
3DAB23AC
3ECA7D5C
3E71B44C
3E1AFA30
BDEDC3CB
BE63D5E7
BE8AC474
3DF04CAE
BDB1D0F1
3E758739
3CBF4845
3E35E152
3DF84437
BDB27CDF
3E1123C7
3EA4A39C
BE8E6C9D

