3DA59DA1
BE7C1BB5
BD09FCF4
3DA9B351
BD26757B
BE06F9A7
3E385DF1
3E82678D
BC801D01
3EC64524
3ED97D0C
3EAD8001
3DB720E5
3E0B556F
BD31B21F
3EA5BF7B
3EC53656
3E4202C2
3D80DA13
3B893B0D
3E4E5008
BE455F00
3D3376F9
3E3A5B4A
3E6D46F3
BCF40970
3EA91A0B
BD876862
BC32EC54
3DFFC4B6
BE6B0159
3D80034D
3DE345EF
3E855533
3D37E2B1
BDAB4D26

