BE68B241
BE4A4267
3E50F3B1
3EB901E0
BE672484
3DF6793D
3E298702
BDAE63B5
BED227BD
3CC1F819
3C4964B7
BE9E190E
BE80ADB3
3BC59D72
BE731166
BE0FBD93
BE2C0B08
3DA759F7
3DE523D7
3E1351E2
BE9BF886
BE8C7195
BD31D1FA
3E13690B
BE2D8269
3E6362D4
3BC8C02C
3E90B676
BE1F3ADD
3DEC982B
BD07EE8E
BE049EA2
BEB6907A
BDBFDE0F
3D1B2D52
3E97D125

