BE8A47E4
3DFF2C91
3D88A97A
3D85E6A1
3E7124F5
3BC6AB17
BE7A9BFF
BE3627E6
3D0CC1AD
3E3A86D6
3D770652
3CB6C21C
BE5BC167
BDE991A7
3D46C691
3D787369
BE29D28E
BC8690BF
3E9129B5
3EA7C423
BD2F0841
3DC75B09
BD9D5119
BBA35626
BE01EC68
BC995B5B
3E32EB36
3DCF124F
3E7F5BCC
3CE8DA5C
BE7B5B5A
BED1B8FB
BE435D93
3EAA9FD3
3D2DC2A4
3E2C8C84

