BE2E20CF
3DE5F7E4
3EE4F6C3
BF02DA57
3ECFDBE4
3F100BD5
3F0C350A
3D08EF3A
BE9AE93D
3E2E9E27
BE86CA1F
BED07386
BEAA34C0
BE48A631
3EE64CA5
3E77EA0E
3D65818F
BDEEB403
3DCCFBC4
BEEA66BB
BDAF7EAB
BCF9F483
3DDFF67B
BE41C299
3D004CC1
BEF90967
BF051F70
BD47F2A8
BDEC686D
3C630D56
BEA8E425
3ECA9731
BE26177B
3E99F8FF
3DAA2CBF
BE810389
3CC487D4
BEA3EB86
BE175AB4
3ED6F64A
3D71C448
3C8FDC3C
BE73B4ED
3F07FAEB
BDF646DB
BE4E1453
3D283AF2
BEE41994

