BCCF638E
BE610BFF
BB1596DD
3E5394D2
BE35309F
3E889850
BE863EE3
3E9602C9
3E49F5C3
3E8D631F
BDA9EEF7
3E2EADAF
3E81EE4C
BCB5E5B6
3E4C05AA
BE1A1DEA
3CC6CADB
BCEA4F90
3E9677BB
3EA927AC
BD7ABE5B
BDD0561D
3D03DFA5
3E80142F
BE8A2BF9
3EAE56F3
3E25D502
3DE21B06
3E85F9C5
3E20AE19
BE1FA0DE
BD66A501
BE0DB12E
3E904972
BD5288EC
3C878EA8

