BE40F4A5
BDD43C7C
3EA1861F
BDA23760
BDCF89BC
3DDB25AA
BD0D3BDA
3E871995
BEAF520B
BBEDF05F
3CDF8B05
BECC0973
3E81F35A
BDC91F64
BEB8C82E
BECEE559
BCDB163C
BE6486AB
BD7C43A8
3D5C614B
BE961832
3DE97FE6
3E5BB4C7
3EB87F53
BC99CAC9
3E80650D
3E232259
BD0B3714
3E056D10
BE544A0D
BD998F5E
BE141C1B
BE226355
3E50D6BF
3E1A3EBD
BE082CF9

