3EA679DA
3D654925
BEB1EA1C
3E42DE85
BEBCBBF5
3E0384E8
3D70F786
3DE20EDB
3DBBB46B
BE7DA4F6
3DADCDE1
BD5F024E
3E79BAE1
BE814D48
BE010DE1
3EDC9DA5
BE23BD71
3D2C3528
BE6CF7B1
BDE671C9
3E8AC861
3E8DBF68
BEBEFCB9
3EBCDAE3
BDBF07D5
3D6C6289
BE8986B1
BDAF2475
BE28C203
3E8546E0
3E38194C
3DF9647D
3D909C98
BE8A99CA
3E096125
3E6F1FBB

