3EAA4373
3CEB7729
3E918D5F
3E5B522F
BDAEE993
BDE9F6CC
BE4957A4
BCBEB6D9
3E2D2719
3EB708EE
3DDAD557
3E23BF00
3B58419B
3E96C64C
3D227A5D
3E30642E
3E2EC902
BD419155
BD581EDA
3E019F8D
BC02BBBF
3E921CCC
BE018081
BB9A76B1
3E768363
BE7FD5EA
3CC6F8EA
3E7E995B
BD710136
BE99F2D7
BD9FA620
3E757349
3E010642
3D220A85
3D6C0AB8
3D1DD029

