3ECDAF38
BDE12752
BDFEBA69
BBF8D745
BE769C88
3EA40BC0
BE30D1B5
3D5FF7EF
3C9F922A
3BE5BEA3
3EC07EA2
BD69A7A9
3D79F7D2
3E027A48
BCA0E142
3E815185
BE54A9F2
BE5E8800
3D21AB5B
3DE2C500
BE05BE5E
3E6409E7
3E0FDF8E
BD55E8FD
3D1981B1
BC1C9B4D
3D046CF5
3D7516EA
BE4775FF
BC6AA498
BE11FD8B
BD02EC92
3E732BBD
BC42EF85
3E99F0D4
BE8486FB

