3E44AD88
BE2AF970
BE499866
BE1570B2
BDE87EFC
BDDDE1AD
3E533B1A
3E515B7F
3D098F24
BDCB7D2B
BD8F2262
3BC8499C
BDB545AA
3E9FBB07
BE83836B
BD93BEC3
3DE56C42
BE2996EF
BE08496B
3CE84D9D
3DADCB87
3E94F385
3E34D631
BD622907
3E4102CD
3EA81994
3E4FF7CA
3DEAC7C8
3E5E18EF
3E3CC42A
3E434AA6
3DF77DDD
3E6CDE71
3D5D366D
3E1F9774
3E55A31C

