BE39BB53
BD9F620A
3E964CCA
3E718768
3DFFBBA3
BDF22572
3D81F55B
3E1DADA2
BD1CA892
3D11DC7E
BE291976
3DAD35BE
BE6A6748
BE859756
3E337A6B
3DDA763D
BCE95787
BCAD9825
3E787024
3E3FD06A
BD05B7A7
BCA7CE9A
3DFFC299
3E5E2B29
BC89771E
3E72F4A2
3E8A0E93
3EA499B2
3EA37461
3DDFD49B
3DC624E7
BE43B84C
3DABCD80
3E39FE5D
BE41E64A
3E8E0AE1

