BE9205DA
BE6EB82C
BDC2C910
BE535164
3E094261
3E84D37A
BCE87916
3EA9BFEE
3B8F250B
BE967FC6
3ED17E1B
BC407D14
3CDDDC65
BE7CC670
BEF45732
3E89FB1F
BD30705C
BE79CB43
BC1A3597
3D43449C
3E0B468B
BD4CA51D
3D26FE88
3E8F880A
3C4984FF
3E9A230A
BDEE8E94
3E8E4E2E
3CC66968
BD2E6E4E
3DC49EDA
BD8638EE
BE9F8B17
3EC5F3A8
BEA6B149
3D0339C2

