BDCA3993
BE8CF502
BC7CBA7B
BEA290C1
BE10E9DB
BEB2C013
3E13947B
3EC7C1B2
3DD5E741
3E998525
3EA13F2D
BC4625DF
3EBB59E3
3EB8D3DE
BEDBEF25
3D19704C
BE055F44
BE7CFCB9
BE1832B9
3C51085B
3EBF6EC1
BC1799BA
BE321204
3F04B910
3E9E26CB
BE238C76
3D80F99C
3EB53CA4
3F184FA9
3F00E6A4
3ED1F76A
BED6A95D
BD60A18E
BD0801BA
BE4ABCF1
BEFBC175
3EF2CCA9
3E8F725C
3EDD4521
BD98C3C4
BAEA300A
BE527F70
BE6EB500
BD5F68DC
3EDCB3DA
BD3F905C
3EC96657
BE7005E2

