3E9A9D2F
BC045760
3E7B462D
3E9868E5
BED4E66E
3E911646
3E3A2841
3C0209A5
BF4413CD
3D871CEA
BEF8EF98
BED90D9B
3E607914
BEAB9AD1
BE959F53
BEA07218
BF2188CA
3DE2CE60
BE8691FA
BDDF252B
BD7DFD1F
BD602FC4
BE83A55A
3E5A477F
3EE22139
3EC08892
BEABABB9
3EA9EF80
BE97658A
3E9D6AA2
3CD0E93E
3DA1C1D2
3DFBDCD9
BE6F29D5
BE06939E
3E3E0491

