3E394471
BDD14EC3
3D6FF934
BDF9E6E1
3E46AA2C
BD757ADB
BE7BDE11
BE6DF66D
BE08D867
3E099BE0
3DE6471D
BD2C104B
3DC66663
3D4661CB
BE13913E
BDAFD667
BE129F39
3E303950
BDCD3A04
BDC2F658
3E3B1136
3DEBBAB3
3D455724
BE1AD6DA
BD01B277
3E8A2E4C
BCAFE3C1
BE875AB1
BDF8BC2B
BE635B24
BE8FB450
BDD6C96B
BE800FB6
3E4311AD
BE476AD8
BE1E5864

