3E103357
3DE01560
3D8AE5E9
3E9CF191
3E41A0A8
BE070362
BE4CEA7F
3DD7A78C
BE9DE4CC
BE60DEB1
BE76B649
BC0216AD
BE5ACD63
BDA422DD
BE84C63A
BE704287
3DC6309E
BE6F4677
3DFB73A8
3C92422F
BC21095F
3CE6F482
3E456FA8
BCEEDC57
3E819AAC
3E8BD9EB
3DBEE4A4
3DC0E54D
3E8FDEBA
3E6F1C11
3E5658E1
BE65A939
3DA6B2A5
3BBAE121
3E108077
3DD3D7AF

