BCA2110C
3CF68CA2
3EBF87DE
3E76B5E6
3E4E3E5F
3D7222BA
3E337254
3E59F26A
3EBB33C8
3EE01CBB
BD14366D
BDF01C38
BE88CFA8
3D992BD6
3C87B80C
3D565D3F
BE47EADF
3D153A3F
3E32F1BA
BDFB496E
3DE8A820
BC81BBAF
3EBF1963
3D3D09C5
BE53AE12
3E82CEC4
3D549F5D
3E9A8E52
3DA53DBD
3CAB8B31
3E321E39
BE222B88
BC546D9E
3EBFF640
BBE11EB1
3E8B4A42

