3D9C930E
3E83458D
BE0900D0
BE88E5E8
3B7F9B24
3D33E844
3E221316
3E374247
BD21471F
BDC911A9
3E0F2966
3EED04DF
BE7EFFD6
3E889048
BED262A4
3E9A3964
BCCFCFDE
BE3D52D2
3DA0C258
3E3FA876
3EAB98D8
BEB891F3
3E034FB9
3D9348B1
3EC2E399
3BDF1101
3E7E76B6
3DE21CC1
BD8D1D5E
3E1BA132
BE7689A6
BD35EF5A
BE9855D7
3EABF239
BD8A114F
3E046C79

