3DB48552
BB968944
3D86CE89
3B8244E9
3D73AE38
3DCBAFD4
BCB90CA1
BCB60C9C
3D8E9368
3DB66BD8
3E0291C7
3D2E8183
3C150B55
3DC89B39
3D8D237B
3E0BBC3B
3D7EE6B6
3BABF3E4
3DCA2F02
3D717B0D
3DFB28DA
3DD0D2D9
3D23CACE
3DE847D2
BB23092F
3D99E6C4
3DAE10E6
3D058914
3D174C02
BCC60F43
BD192F87
3DC806D8
3D74BF37
3D56838A
3DC35E80
3D85BF1E

