BE063D6E
BDB9EBD4
BDBEBD85
3E6C3D40
3BA80969
3E9987E6
BDE2A170
3D9489AD
3B2A13FA
BE152947
3EA201FF
3E1E0BED
3DE11C78
3E2082E5
BC8A1ABD
3DBBCCD9
BDB2F911
BD13144E
3E6AF05C
BDC3F328
3DF814F0
3EA890E4
3C10D5EE
3E1EEB5B
3DA93AEA
BE6D2942
BCDE21C4
BE031010
BD813128
BEAB06E2
BDAB9D80
3E69F61D
3E8C8BD3
3D02515B
3DA5ACF1
BE631685

