3E09DD80
BC371CE0
3EB63B56
3E75DD46
BD275989
3ECFC139
BDF565AC
BE26E431
BEFA8B50
BE128FDE
BED4005F
BD93C9B9
BBE362BC
BEB9B5B1
BED8AF70
BE3918BA
BE9DED05
BE3C01E3
BEF42B2F
BE7C85AD
BE779F8A
3E90D1F0
BD80989D
3F0900FB
3D2B04FE
3E419F05
BE14D891
3EBCE72A
BD86B32A
3DDCA766
3E28EC6F
3E1B099E
3D8780E1
3E4CC633
3E7605B1
3E984743

