BCB9D462
BDDE35EC
3EECA4E8
3EF08E0E
BDF05E65
3ECE698F
BE135BAD
BDC7D98C
3C94E39F
BE307184
BD183F96
BDCC21F7
3D39ED2E
BD908A7C
BC5FA465
BE4E7763
BEA8BDE4
BDD29D1B
BD7FF6CB
3ED8D463
3DBB6937
3E83E68E
BDF2A0D6
3ED295BC
3E31A273
BD96B885
3EAD14AE
BD88CBEC
3DC492F7
BDAE380C
BD215BC8
3E0CDD3F
BE456DAF
BD96AE8B
3CAE9A4A
3ED3ABCC

