BEB5207D
BD31E61F
3D92E038
BD68CD89
3E4DC595
3DAF204F
3D118633
BD8A7186
BDAEB354
BCB27BB9
3E1A3DE8
3EAF9090
BE47CBFA
3DE0CEB5
BD5B814D
3E2EDC37
3EA0644B
BBBEFF00
3EE5DE38
3ECAA463
3ED3FA32
3D6137E7
BD630D9D
BE87DBBC
BDE222FE
BE6A55AD
3D8E3D43
3E69AF92
3EACAE1E
BE194482
3E3F5A35
BD9883E4
3DA2E3D1
3E5849FF
3E5C965A
3E01D6C5

