3EA562CD
3D50D0F7
BC83DA6F
3E70BD0D
BEA7E7B7
3E6C524D
3DC0CDF5
BEBB3901
BE877086
3DEDF24D
3E1209C4
BEA33990
3E3A94BB
3DAE4450
BEC847D5
BDBC599C
3E0D00FB
BD2961DC
3E5002E8
BE8E183E
3E97D423
3E2E2B67
BE9A8F3E
BD864002
BE65843A
BD63D19A
BE3F78F3
3E3DF8D9
3DBD863E
BDA73560
BD2AA80E
3CF42497
BE111123
3E051311
3E8AC87E
3E2F4A36

