BEBF5D5D
3C41DD81
3E86C043
3E859550
39FB9B27
3E9681AE
BD58792A
BDF937D0
3E8A36CD
3EF8FB64
3D76F07F
3DE099AE
BEB5B5E6
3CAC6BCD
3E1D4005
BE6EB009
BE5E4659
BC87F4BD
BCBC72AF
3C76EFAA
BDD9D452
3E64801B
3EAC4E10
3E9FEC31
BE3DD484
3E5738A4
3E5AFAAE
3E74641D
3DC75134
3E023842
3E150DD3
3D6D04E1
3E24C590
BE21A364
BC5AC872
3EA33727

