3E83A0E2
BE8862CF
3E28F8DE
3E0757AF
BEE21190
3E89C168
BE234BD6
BE7E5F45
BEED57EF
BEC1F6E1
3E172C94
3D565813
3EA14A45
BCBD6592
BEE7F6A2
3C9F4BA9
BEDFF882
3E2FC5D9
BE925D06
3D97315E
3E7C5065
3E2B8284
BEBFB1E1
3EDEC937
3E3FD438
3EB4A99F
BE621392
BE589ADE
BE67DEE9
BD892CAD
3E5CE7A1
3E3AA0D5
3E61EF65
BE5116BE
3D729B24
3EA38CFA

