BE887AF5
BE4C7B05
3EB53B01
3EA994A5
BDC2F1AB
BD37EB3B
BE3A7DEE
3985EC18
BE9E88B8
BB3E965A
BE176CEC
3E1A316E
BE9AC9FD
BE5CB15A
BDDE9547
BD8605E2
BE06D58E
BCCC43B9
3E3EC6EC
3EA3AF12
BE1E3F7E
BD869230
BE0D9990
BD816EC9
BE7165CA
BD9E9EB3
3E61F768
3E4C10CA
3BAF8E52
3E8A46C7
BB1C2BD3
BE96F0C3
BDB7E90E
BE084675
3E63FAC8
3DE363D3

