BE2C245A
3DCC6201
3E92FB08
3E77271E
BB8826DC
3E39AAF3
3D3158AA
BE26847E
BDF9E3C6
3E958991
BE56493F
3E5A1954
BEADE3E5
BE2A8D04
3E36747B
3D6A4CB2
BE845632
BE0024FE
3DBEE0DF
3E003C25
BE212BA4
BDFAF895
3E15D4C8
3E8EC4EC
3D9AD6C9
BDC844B7
3E9B1849
3E9F51D8
3E738C24
BE3D08A7
BE6E75E5
3DBF88A4
BE1001E7
BD857394
3C5FA1F8
BD72E1FF

