3DA129AF
BE1BAA15
3B916FBF
3B182EE0
BDCCF205
3DAB7AD1
3E96E19E
3D81AF04
3D310591
3D86BB87
BE025F52
3E32FEBC
BE90AD9B
BE8B750E
3DE55074
BE82C1AE
BE317BA5
BE2E3276
3E72A59C
3EE213B7
3DE2BBCC
BE83FA27
3D0BC342
BE89333B
3E0938BD
3DB94B48
3E02C429
BE5FB98B
BE08DC66
3C54816C
3EB24669
3EE362BE
3E6B6F62
BE1E826E
3E43A1CF
3E0800F1
3E08D250
3EAD1554
3DB355A7
3B88D8AC
BE23908A
3E96FC07
3EC25977
3E9A07E0
BE1D9577
3EAB8934
BE5D8267
3EC07022

