3DF6D7C5
3E0A8042
3EAE12ED
BE6700E7
3E80ECE3
3DB0C574
BE76BDA0
3E465655
3D36D0C1
3DABEFF6
BDE4D77D
3E58C7A8
3DAF52E6
3E03B24B
BD7439FD
3E9EAC75
BCD1EFFB
BD84E1E7
3E5FD355
3E49A55F
BD7C27DC
BDB242CA
3E5B17EF
BD724688
BE1C90AE
BD0A5665
3E8377F0
3E3CEA7F
3A9E5C21
BD8F5D29
3CA78EBC
BD85502B
BCCDB63D
3DDD4302
3DDB3218
3D97B866

