BEEF7E1C
BE76882F
3D8FE8B0
BE1FAFE9
BC95BCA4
3EA55686
BE279953
3C81A56A
3E9ADBCC
3EE7A15F
3D8F54C0
3E94D9D7
BD7C5E32
B93F8C26
3EA19395
BD7ABEA3
3EA8DA26
3D2332A3
BD7A9D2D
BDCF0C69
BD3CA348
BDF1A6BC
3DBE8212
BDA2E974
BD928326
BAABA424
3E4D477A
3E867CB4
3EB21622
BD35807E
BE53EAE7
BE779CDB
3D57DDA5
3E29AA68
BD612F22
3EAA0375

