BE325B63
3EA0BF9A
3E55BF0D
3E6F53CB
3DFAD061
3D08D0AF
BDD6C6D6
BD0CBD83
BE7AB6C0
BDB9F38F
BE48EAAF
BEE44A78
BE3AE7B6
3D0D7ACD
BEAB6B5B
3E787450
3E333AD1
BE60CA8F
3EA00D83
BDA6DBEF
BE8D1057
BE8356EE
BE883D64
3D1ED0CE
BE915D7B
BEA2315F
BE8995CE
BEB7DBEF
BCE7E242
3ED5FF9E
3C9B7D74
BEC79614
3F012EB0
BF12155A
3E813ECC
3E9F10CC
BE338F82
BF09DFA5
3DD4FDC1
3DC6F18C
3F141823
BEDF4CE9
3EA54A6B
BD97E8B3
3EF017F8
BDD785E7
BD082434
BE724063

