BE8FAD00
BE80782A
3DAB2D61
3D2667E4
BE8C9253
BE10FBE4
3D41BC63
BC8D71BB
BF3AD5A7
3B7AE5A6
3D94B786
BD916417
BE9BE86B
BE63EAB5
BF0A8D27
3D8C9022
BE6805C8
BC94E6AD
3C4C8110
BD0E11F6
BEEDC445
3E308518
BE33663B
3F2E2419
BC5863C9
3D0D3CD8
3E00F95A
3EBB7365
3D3A3461
3B783D7B
3DF68BC1
3BF1C764
BED67C71
3D9AB3F3
BECDB274
BD640F2D

