BCEFEC82
BE25B3A4
BE036EF2
3E97DC82
3E7271F8
3D45A28E
3DC0A273
3D54E550
3E2F14F5
BD2514EB
3E084F2C
3DA384A1
3E0CDA0E
BDFF1D5F
BD599B7E
3EB28CEC
3D558756
3D7173A8
3EAD2145
3E4FD64A
BD14767E
BDEA0399
BE532D16
BD519293
BC1E2762
3D83AF57
BE1429D0
BE004CFA
BE152B71
BE878AE6
BE6E7C3F
3E9603F1
3E53A293
BD739648
BDE5001E
3CAB5047

