3E0EDB6A
BE0F4BD3
BDA0343A
3E16D12E
3E4078FA
3EBD1371
3D137D6B
3DB33FDC
BE1111D8
BCCE7B9F
3DA3FF70
BEAF7128
3CE1F40E
BEB92C65
BE45957E
3D96BE14
BE660021
3E2CE972
3E310E8A
3E26BF8E
BD5A0CE6
3D7702E7
3E8A9FDE
BC9AE203
3CFC8206
3E5BFC0F
BDB751D9
3E09E4F8
3D9DA396
3E491516
BD7FF89B
BE3E32C0
3DC6C1E6
BD516934
3C867C48
3B715C9E

