BE9CA526
BE4D503A
3C8AD36D
3E5F13B1
3DFD6687
3E75E5A5
3E24CC39
3CE84644
3E8B4219
BCD5F583
3D6C864F
BC2BF2B7
BEA7FFEC
3E7B7FF3
3E9851FF
3E475D5C
3EC38A0D
BCDA6AFE
3E2A7B4C
3EC00365
3D606BEC
3D22690D
BDD91D16
BCE6D491
3E96C640
3E8859F3
BD4770CF
BD1CF7BE
3EAD7494
BDB018CA
BDAA7348
BED4556D
3E8F9649
3EC5F262
3CACAC53
3E547117

