BE05BCFB
BE66042D
3E82F981
3D926FDB
3E2E62DD
3E15226C
3E782702
3E59623C
3E68C205
BD52A2E1
3D86E5C6
3E66EEF9
3DAC09AD
3EB4323C
3EAF1419
3E84B960
BD7D52E2
BD9FB718
3E51FD77
BE7766C0
3E146F6E
3EA51F3F
3E9B9EE2
BE4F4C47
3CB8C24C
3DEA0E0C
3E049C15
3C62C7B6
3DDBE6F5
BDCDFE4C
3E5A98CF
BDCB5395
BDD0B771
BE251D81
BCE5D7B3
BE1B539D

